#include "apples_model.h"

const unsigned char apples_model_tflite[] = {
  0x1c, 0x00, 0x00, 0x00, 0x54, 0x46, 0x4c, 0x33, 0x14, 0x00, 0x20, 0x00,
  0x04, 0x00, 0x08, 0x00, 0x0c, 0x00, 0x10, 0x00, 0x14, 0x00, 0x00, 0x00,
  0x18, 0x00, 0x1c, 0x00, 0x14, 0x00, 0x00, 0x00, 0x03, 0x00, 0x00, 0x00,
  0x54, 0x00, 0x00, 0x00, 0x48, 0x00, 0x00, 0x00, 0xb4, 0x00, 0x00, 0x00,
  0x0c, 0x00, 0x00, 0x00, 0x5c, 0x00, 0x00, 0x00, 0x54, 0x00, 0x00, 0x00,
  0x0c, 0x00, 0x00, 0x00, 0xec, 0x17, 0x00, 0x00, 0xe8, 0x17, 0x00, 0x00,
  0xf8, 0x06, 0x00, 0x00, 0x40, 0x06, 0x00, 0x00, 0x78, 0x05, 0x00, 0x00,
  0x04, 0x05, 0x00, 0x00, 0xd4, 0x17, 0x00, 0x00, 0xd0, 0x17, 0x00, 0x00,
  0xcc, 0x17, 0x00, 0x00, 0xc8, 0x17, 0x00, 0x00, 0xc4, 0x17, 0x00, 0x00,
  0x58, 0x00, 0x00, 0x00, 0x01, 0x00, 0x00, 0x00, 0x90, 0x00, 0x00, 0x00,
  0x04, 0x00, 0x00, 0x00, 0x50, 0x04, 0x00, 0x00, 0x68, 0x03, 0x00, 0x00,
  0xb8, 0x01, 0x00, 0x00, 0x20, 0x01, 0x00, 0x00, 0x00, 0x00, 0x00, 0x00,
  0x01, 0x00, 0x00, 0x00, 0x0c, 0x00, 0x00, 0x00, 0x08, 0x00, 0x0c, 0x00,
  0x04, 0x00, 0x08, 0x00, 0x08, 0x00, 0x00, 0x00, 0x08, 0x00, 0x00, 0x00,
  0x0b, 0x00, 0x00, 0x00, 0x13, 0x00, 0x00, 0x00, 0x6d, 0x69, 0x6e, 0x5f,
  0x72, 0x75, 0x6e, 0x74, 0x69, 0x6d, 0x65, 0x5f, 0x76, 0x65, 0x72, 0x73,
  0x69, 0x6f, 0x6e, 0x00, 0x8a, 0xf9, 0xff, 0xff, 0x04, 0x00, 0x00, 0x00,
  0x10, 0x00, 0x00, 0x00, 0x31, 0x2e, 0x31, 0x34, 0x2e, 0x30, 0x00, 0x00,
  0x00, 0x00, 0x00, 0x00, 0x00, 0x00, 0x00, 0x00, 0x0f, 0x00, 0x00, 0x00,
  0x4d, 0x4c, 0x49, 0x52, 0x20, 0x43, 0x6f, 0x6e, 0x76, 0x65, 0x72, 0x74,
  0x65, 0x64, 0x2e, 0x00, 0x00, 0x00, 0x0e, 0x00, 0x18, 0x00, 0x04, 0x00,
  0x08, 0x00, 0x0c, 0x00, 0x10, 0x00, 0x14, 0x00, 0x0e, 0x00, 0x00, 0x00,
  0x48, 0x00, 0x00, 0x00, 0x3c, 0x00, 0x00, 0x00, 0x30, 0x00, 0x00, 0x00,
  0x14, 0x00, 0x00, 0x00, 0x04, 0x00, 0x00, 0x00, 0x04, 0x00, 0x00, 0x00,
  0x6d, 0x61, 0x69, 0x6e, 0x00, 0x00, 0x00, 0x00, 0x05, 0x00, 0x00, 0x00,
  0x78, 0x03, 0x00, 0x00, 0x78, 0x02, 0x00, 0x00, 0xa0, 0x01, 0x00, 0x00,
  0xd4, 0x00, 0x00, 0x00, 0x4c, 0x00, 0x00, 0x00, 0x01, 0x00, 0x00, 0x00,
  0x09, 0x00, 0x00, 0x00, 0x01, 0x00, 0x00, 0x00, 0x00, 0x00, 0x00, 0x00,
  0x0a, 0x00, 0x00, 0x00, 0x7c, 0x16, 0x00, 0x00, 0xf4, 0x15, 0x00, 0x00,
  0x8c, 0x05, 0x00, 0x00, 0xc4, 0x04, 0x00, 0x00, 0x10, 0x04, 0x00, 0x00,
  0x88, 0x03, 0x00, 0x00, 0x8c, 0x02, 0x00, 0x00, 0x98, 0x01, 0x00, 0x00,
  0xd8, 0x00, 0x00, 0x00, 0x40, 0x00, 0x00, 0x00, 0x00, 0x00, 0x0a, 0x00,
  0x10, 0x00, 0x04, 0x00, 0x08, 0x00, 0x0c, 0x00, 0x0a, 0x00, 0x00, 0x00,
  0x03, 0x00, 0x00, 0x00, 0x10, 0x00, 0x00, 0x00, 0x04, 0x00, 0x00, 0x00,
  0x01, 0x00, 0x00, 0x00, 0x09, 0x00, 0x00, 0x00, 0x01, 0x00, 0x00, 0x00,
  0x08, 0x00, 0x00, 0x00, 0xe8, 0xfc, 0xff, 0xff, 0x06, 0x00, 0x00, 0x00,
  0x00, 0x00, 0x00, 0x06, 0x02, 0x00, 0x00, 0x00, 0xfc, 0xe9, 0xff, 0xff,
  0x40, 0x00, 0x00, 0x00, 0x0a, 0x00, 0x00, 0x00, 0x18, 0x00, 0x00, 0x00,
  0x40, 0x00, 0x00, 0x00, 0x04, 0x00, 0x00, 0x00, 0x02, 0x00, 0x00, 0x00,
  0xff, 0xff, 0xff, 0xff, 0x04, 0x00, 0x00, 0x00, 0x19, 0x00, 0x00, 0x00,
  0x53, 0x74, 0x61, 0x74, 0x65, 0x66, 0x75, 0x6c, 0x50, 0x61, 0x72, 0x74,
  0x69, 0x74, 0x69, 0x6f, 0x6e, 0x65, 0x64, 0x43, 0x61, 0x6c, 0x6c, 0x3a,
  0x30, 0x00, 0x00, 0x00, 0x02, 0x00, 0x00, 0x00, 0x01, 0x00, 0x00, 0x00,
  0x04, 0x00, 0x00, 0x00, 0xe0, 0xe9, 0xff, 0xff, 0x46, 0xff, 0xff, 0xff,
  0x00, 0x00, 0x00, 0x09, 0x02, 0x00, 0x00, 0x00, 0x1c, 0x00, 0x00, 0x00,
  0x10, 0x00, 0x00, 0x00, 0x04, 0x00, 0x00, 0x00, 0xea, 0xfa, 0xff, 0xff,
  0x00, 0x00, 0x80, 0x3f, 0x01, 0x00, 0x00, 0x00, 0x08, 0x00, 0x00, 0x00,
  0x01, 0x00, 0x00, 0x00, 0x07, 0x00, 0x00, 0x00, 0x7c, 0xfd, 0xff, 0xff,
  0x19, 0x00, 0x00, 0x00, 0x00, 0x00, 0x00, 0x19, 0x02, 0x00, 0x00, 0x00,
  0x70, 0xfd, 0xff, 0xff, 0x00, 0x00, 0x00, 0x09, 0x40, 0x00, 0x00, 0x00,
  0x09, 0x00, 0x00, 0x00, 0x18, 0x00, 0x00, 0x00, 0x40, 0x00, 0x00, 0x00,
  0x04, 0x00, 0x00, 0x00, 0x02, 0x00, 0x00, 0x00, 0xff, 0xff, 0xff, 0xff,
  0x04, 0x00, 0x00, 0x00, 0x1a, 0x00, 0x00, 0x00, 0x53, 0x74, 0x61, 0x74,
  0x65, 0x66, 0x75, 0x6c, 0x50, 0x61, 0x72, 0x74, 0x69, 0x74, 0x69, 0x6f,
  0x6e, 0x65, 0x64, 0x43, 0x61, 0x6c, 0x6c, 0x3a, 0x30, 0x31, 0x00, 0x00,
  0x02, 0x00, 0x00, 0x00, 0x01, 0x00, 0x00, 0x00, 0x04, 0x00, 0x00, 0x00,
  0x14, 0xeb, 0xff, 0xff, 0x18, 0x00, 0x00, 0x00, 0x04, 0x00, 0x00, 0x00,
  0x01, 0x00, 0x00, 0x00, 0x80, 0xff, 0xff, 0xff, 0xff, 0xff, 0xff, 0xff,
  0x00, 0x00, 0x00, 0x00, 0x01, 0x00, 0x00, 0x00, 0x00, 0x00, 0x80, 0x3b,
  0x00, 0x00, 0x0e, 0x00, 0x18, 0x00, 0x08, 0x00, 0x0c, 0x00, 0x10, 0x00,
  0x07, 0x00, 0x14, 0x00, 0x0e, 0x00, 0x00, 0x00, 0x00, 0x00, 0x00, 0x08,
  0x01, 0x00, 0x00, 0x00, 0x18, 0x00, 0x00, 0x00, 0x0c, 0x00, 0x00, 0x00,
  0x04, 0x00, 0x00, 0x00, 0xc4, 0xea, 0xff, 0xff, 0x01, 0x00, 0x00, 0x00,
  0x07, 0x00, 0x00, 0x00, 0x03, 0x00, 0x00, 0x00, 0x06, 0x00, 0x00, 0x00,
  0x03, 0x00, 0x00, 0x00, 0x04, 0x00, 0x00, 0x00, 0x2c, 0xfe, 0xff, 0xff,
  0x00, 0x00, 0x00, 0x09, 0x5c, 0x00, 0x00, 0x00, 0x08, 0x00, 0x00, 0x00,
  0x18, 0x00, 0x00, 0x00, 0x5c, 0x00, 0x00, 0x00, 0x04, 0x00, 0x00, 0x00,
  0x02, 0x00, 0x00, 0x00, 0xff, 0xff, 0xff, 0xff, 0x04, 0x00, 0x00, 0x00,
  0x34, 0x00, 0x00, 0x00, 0x73, 0x65, 0x71, 0x75, 0x65, 0x6e, 0x74, 0x69,
  0x61, 0x6c, 0x2f, 0x64, 0x65, 0x6e, 0x73, 0x65, 0x5f, 0x31, 0x2f, 0x4d,
  0x61, 0x74, 0x4d, 0x75, 0x6c, 0x3b, 0x73, 0x65, 0x71, 0x75, 0x65, 0x6e,
  0x74, 0x69, 0x61, 0x6c, 0x2f, 0x64, 0x65, 0x6e, 0x73, 0x65, 0x5f, 0x31,
  0x2f, 0x42, 0x69, 0x61, 0x73, 0x41, 0x64, 0x64, 0x00, 0x00, 0x00, 0x00,
  0x02, 0x00, 0x00, 0x00, 0x01, 0x00, 0x00, 0x00, 0x04, 0x00, 0x00, 0x00,
  0xec, 0xeb, 0xff, 0xff, 0x14, 0x00, 0x00, 0x00, 0x04, 0x00, 0x00, 0x00,
  0x01, 0x00, 0x00, 0x00, 0x32, 0x00, 0x00, 0x00, 0x00, 0x00, 0x00, 0x00,
  0x01, 0x00, 0x00, 0x00, 0x0a, 0x5c, 0x15, 0x3e, 0x00, 0x00, 0x0e, 0x00,
  0x1a, 0x00, 0x08, 0x00, 0x0c, 0x00, 0x10, 0x00, 0x07, 0x00, 0x14, 0x00,
  0x0e, 0x00, 0x00, 0x00, 0x00, 0x00, 0x00, 0x08, 0x01, 0x00, 0x00, 0x00,
  0x24, 0x00, 0x00, 0x00, 0x18, 0x00, 0x00, 0x00, 0x0c, 0x00, 0x00, 0x00,
  0x00, 0x00, 0x06, 0x00, 0x08, 0x00, 0x07, 0x00, 0x06, 0x00, 0x00, 0x00,
  0x00, 0x00, 0x00, 0x01, 0x01, 0x00, 0x00, 0x00, 0x06, 0x00, 0x00, 0x00,
  0x03, 0x00, 0x00, 0x00, 0x05, 0x00, 0x00, 0x00, 0x01, 0x00, 0x00, 0x00,
  0x02, 0x00, 0x00, 0x00, 0x28, 0xff, 0xff, 0xff, 0x09, 0x00, 0x00, 0x00,
  0x00, 0x00, 0x00, 0x09, 0x04, 0x00, 0x00, 0x00, 0x1c, 0xff, 0xff, 0xff,
  0x00, 0x00, 0x00, 0x09, 0x6c, 0x00, 0x00, 0x00, 0x07, 0x00, 0x00, 0x00,
  0x18, 0x00, 0x00, 0x00, 0x6c, 0x00, 0x00, 0x00, 0x04, 0x00, 0x00, 0x00,
  0x02, 0x00, 0x00, 0x00, 0xff, 0xff, 0xff, 0xff, 0x14, 0x00, 0x00, 0x00,
  0x46, 0x00, 0x00, 0x00, 0x73, 0x65, 0x71, 0x75, 0x65, 0x6e, 0x74, 0x69,
  0x61, 0x6c, 0x2f, 0x64, 0x65, 0x6e, 0x73, 0x65, 0x2f, 0x4d, 0x61, 0x74,
  0x4d, 0x75, 0x6c, 0x3b, 0x73, 0x65, 0x71, 0x75, 0x65, 0x6e, 0x74, 0x69,
  0x61, 0x6c, 0x2f, 0x64, 0x65, 0x6e, 0x73, 0x65, 0x2f, 0x42, 0x69, 0x61,
  0x73, 0x41, 0x64, 0x64, 0x3b, 0x73, 0x65, 0x71, 0x75, 0x65, 0x6e, 0x74,
  0x69, 0x61, 0x6c, 0x2f, 0x64, 0x65, 0x6e, 0x73, 0x65, 0x2f, 0x52, 0x65,
  0x6c, 0x75, 0x00, 0x00, 0x02, 0x00, 0x00, 0x00, 0x01, 0x00, 0x00, 0x00,
  0x14, 0x00, 0x00, 0x00, 0xec, 0xec, 0xff, 0xff, 0x14, 0x00, 0x00, 0x00,
  0x04, 0x00, 0x00, 0x00, 0x01, 0x00, 0x00, 0x00, 0x80, 0xff, 0xff, 0xff,
  0xff, 0xff, 0xff, 0xff, 0x01, 0x00, 0x00, 0x00, 0xbe, 0x05, 0x5c, 0x3d,
  0x00, 0x00, 0x0a, 0x00, 0x0c, 0x00, 0x00, 0x00, 0x04, 0x00, 0x08, 0x00,
  0x0a, 0x00, 0x00, 0x00, 0x10, 0x00, 0x00, 0x00, 0x04, 0x00, 0x00, 0x00,
  0x01, 0x00, 0x00, 0x00, 0x05, 0x00, 0x00, 0x00, 0x01, 0x00, 0x00, 0x00,
  0x00, 0x00, 0x00, 0x00, 0x0c, 0x00, 0x10, 0x00, 0x0b, 0x00, 0x00, 0x00,
  0x0c, 0x00, 0x04, 0x00, 0x0c, 0x00, 0x00, 0x00, 0x72, 0x00, 0x00, 0x00,
  0x00, 0x00, 0x00, 0x72, 0x01, 0x00, 0x00, 0x00, 0x14, 0x00, 0x1c, 0x00,
  0x08, 0x00, 0x07, 0x00, 0x0c, 0x00, 0x10, 0x00, 0x14, 0x00, 0x00, 0x00,
  0x00, 0x00, 0x18, 0x00, 0x14, 0x00, 0x00, 0x00, 0x00, 0x00, 0x00, 0x09,
  0x34, 0x00, 0x00, 0x00, 0x06, 0x00, 0x00, 0x00, 0x18, 0x00, 0x00, 0x00,
  0x34, 0x00, 0x00, 0x00, 0x04, 0x00, 0x00, 0x00, 0x02, 0x00, 0x00, 0x00,
  0xff, 0xff, 0xff, 0xff, 0xcc, 0x00, 0x00, 0x00, 0x0c, 0x00, 0x00, 0x00,
  0x74, 0x66, 0x6c, 0x2e, 0x71, 0x75, 0x61, 0x6e, 0x74, 0x69, 0x7a, 0x65,
  0x00, 0x00, 0x00, 0x00, 0x02, 0x00, 0x00, 0x00, 0x01, 0x00, 0x00, 0x00,
  0xcc, 0x00, 0x00, 0x00, 0xac, 0xed, 0xff, 0xff, 0x14, 0x00, 0x00, 0x00,
  0x04, 0x00, 0x00, 0x00, 0x01, 0x00, 0x00, 0x00, 0x80, 0xff, 0xff, 0xff,
  0xff, 0xff, 0xff, 0xff, 0x01, 0x00, 0x00, 0x00, 0xf5, 0x7f, 0x80, 0x3b,
  0x1e, 0xfe, 0xff, 0xff, 0x04, 0x00, 0x00, 0x00, 0x10, 0x00, 0x00, 0x00,
  0x81, 0x00, 0x00, 0x00, 0x73, 0x01, 0x00, 0x00, 0x74, 0xfd, 0xff, 0xff,
  0x47, 0x00, 0x00, 0x00, 0x36, 0xee, 0xff, 0xff, 0x00, 0x00, 0x00, 0x02,
  0x24, 0x00, 0x00, 0x00, 0x05, 0x00, 0x00, 0x00, 0x08, 0x00, 0x00, 0x00,
  0x20, 0x00, 0x00, 0x00, 0x0c, 0x00, 0x00, 0x00, 0x64, 0x65, 0x6e, 0x73,
  0x65, 0x5f, 0x31, 0x2f, 0x62, 0x69, 0x61, 0x73, 0x00, 0x00, 0x00, 0x00,
  0x01, 0x00, 0x00, 0x00, 0x04, 0x00, 0x00, 0x00, 0x1c, 0xee, 0xff, 0xff,
  0x14, 0x00, 0x00, 0x00, 0x04, 0x00, 0x00, 0x00, 0x01, 0x00, 0x00, 0x00,
  0x00, 0x00, 0x00, 0x00, 0x00, 0x00, 0x00, 0x00, 0x01, 0x00, 0x00, 0x00,
  0x65, 0x31, 0x1d, 0x3a, 0x8e, 0xfe, 0xff, 0xff, 0x04, 0x00, 0x00, 0x00,
  0x50, 0x00, 0x00, 0x00, 0xfe, 0x35, 0xec, 0x3b, 0xfd, 0x93, 0xfa, 0x15,
  0x1a, 0xd5, 0xea, 0xf7, 0xf5, 0xd1, 0x18, 0xeb, 0x08, 0xd4, 0xf0, 0xd5,
  0x17, 0xf4, 0x27, 0x2c, 0x2b, 0x2d, 0xfb, 0x28, 0x2d, 0xa8, 0x0b, 0xb6,
  0x44, 0x81, 0x0d, 0xbf, 0xe2, 0x5d, 0x15, 0x0c, 0x0b, 0x22, 0xec, 0xc8,
  0x03, 0x02, 0x17, 0x1c, 0x24, 0x30, 0xdf, 0xbe, 0x8e, 0x39, 0x1e, 0xd8,
  0x18, 0x8b, 0xf9, 0x07, 0xe2, 0xb9, 0x27, 0xca, 0xe7, 0x3f, 0x0a, 0x29,
  0xf3, 0x24, 0x08, 0x40, 0x38, 0x23, 0xf5, 0x42, 0xf0, 0x46, 0x29, 0x0e,
  0xe6, 0xee, 0xff, 0xff, 0x00, 0x00, 0x00, 0x09, 0x30, 0x00, 0x00, 0x00,
  0x04, 0x00, 0x00, 0x00, 0x08, 0x00, 0x00, 0x00, 0x30, 0x00, 0x00, 0x00,
  0x19, 0x00, 0x00, 0x00, 0x73, 0x65, 0x71, 0x75, 0x65, 0x6e, 0x74, 0x69,
  0x61, 0x6c, 0x2f, 0x64, 0x65, 0x6e, 0x73, 0x65, 0x5f, 0x31, 0x2f, 0x4d,
  0x61, 0x74, 0x4d, 0x75, 0x6c, 0x00, 0x00, 0x00, 0x02, 0x00, 0x00, 0x00,
  0x04, 0x00, 0x00, 0x00, 0x14, 0x00, 0x00, 0x00, 0xdc, 0xee, 0xff, 0xff,
  0x18, 0x00, 0x00, 0x00, 0x04, 0x00, 0x00, 0x00, 0x01, 0x00, 0x00, 0x00,
  0x00, 0x00, 0x00, 0x00, 0x00, 0x00, 0x00, 0x00, 0x00, 0x00, 0x00, 0x00,
  0x01, 0x00, 0x00, 0x00, 0x94, 0xe5, 0x36, 0x3c, 0x52, 0xff, 0xff, 0xff,
  0x04, 0x00, 0x00, 0x00, 0x50, 0x00, 0x00, 0x00, 0x00, 0x00, 0x00, 0x00,
  0xf7, 0xdd, 0xff, 0xff, 0xfe, 0xfe, 0xff, 0xff, 0xe9, 0x24, 0x00, 0x00,
  0x41, 0xff, 0xff, 0xff, 0xca, 0x25, 0x00, 0x00, 0x94, 0xfe, 0xff, 0xff,
  0xf2, 0xfe, 0xff, 0xff, 0x05, 0xfd, 0xff, 0xff, 0xd8, 0xd0, 0xff, 0xff,
  0x54, 0xfe, 0xff, 0xff, 0x40, 0x1a, 0x00, 0x00, 0x8a, 0x5e, 0x00, 0x00,
  0x48, 0xdd, 0xff, 0xff, 0x00, 0x00, 0x00, 0x00, 0xd3, 0x1d, 0x00, 0x00,
  0x41, 0xff, 0xff, 0xff, 0x9c, 0x64, 0x00, 0x00, 0x00, 0x00, 0x00, 0x00,
  0xd4, 0xfe, 0xff, 0xff, 0xaa, 0xef, 0xff, 0xff, 0x00, 0x00, 0x00, 0x02,
  0x20, 0x00, 0x00, 0x00, 0x03, 0x00, 0x00, 0x00, 0x08, 0x00, 0x00, 0x00,
  0x1c, 0x00, 0x00, 0x00, 0x0a, 0x00, 0x00, 0x00, 0x64, 0x65, 0x6e, 0x73,
  0x65, 0x2f, 0x62, 0x69, 0x61, 0x73, 0x00, 0x00, 0x01, 0x00, 0x00, 0x00,
  0x14, 0x00, 0x00, 0x00, 0x8c, 0xef, 0xff, 0xff, 0x14, 0x00, 0x00, 0x00,
  0x04, 0x00, 0x00, 0x00, 0x01, 0x00, 0x00, 0x00, 0x00, 0x00, 0x00, 0x00,
  0x00, 0x00, 0x00, 0x00, 0x01, 0x00, 0x00, 0x00, 0x6a, 0x91, 0x03, 0x38,
  0x00, 0x00, 0x06, 0x00, 0x08, 0x00, 0x04, 0x00, 0x06, 0x00, 0x00, 0x00,
  0x04, 0x00, 0x00, 0x00, 0xf0, 0x0f, 0x00, 0x00, 0xef, 0xf6, 0x07, 0xef,
  0x08, 0xff, 0xfd, 0x00, 0x11, 0xf3, 0x00, 0x0d, 0x0f, 0x0f, 0x13, 0x0c,
  0x0b, 0x08, 0xf7, 0x06, 0x12, 0x06, 0xf9, 0x06, 0x14, 0xff, 0x12, 0xf3,
  0x12, 0xff, 0x11, 0xf5, 0xec, 0x01, 0x07, 0x07, 0xf7, 0x05, 0xf4, 0xfa,
  0xf6, 0x10, 0x00, 0x0c, 0xf0, 0xee, 0xfd, 0xf2, 0xf8, 0xfe, 0x0c, 0xfa,
  0xef, 0x0b, 0x03, 0xee, 0xf4, 0xfb, 0xfc, 0xed, 0x0c, 0xf0, 0xfe, 0xf0,
  0xfa, 0x11, 0x06, 0x07, 0x06, 0x0e, 0xf9, 0xed, 0x0b, 0xf1, 0x07, 0x04,
  0x0e, 0x0e, 0x11, 0x04, 0x07, 0x05, 0xf0, 0x13, 0xf9, 0x0a, 0xf6, 0x05,
  0xee, 0xfd, 0x0d, 0x00, 0xf3, 0x10, 0xee, 0x0b, 0x0b, 0xfd, 0x14, 0xf3,
  0xee, 0x0a, 0x10, 0xed, 0xfe, 0x0f, 0x10, 0x0f, 0xf4, 0x12, 0x06, 0x08,
  0x13, 0xfb, 0x0d, 0x03, 0xf9, 0xf7, 0xfa, 0x13, 0x0d, 0x11, 0x07, 0x0a,
  0x0b, 0x0e, 0x0d, 0xf4, 0x07, 0xf0, 0xf6, 0x04, 0x05, 0xf7, 0xfc, 0x07,
  0xed, 0xfb, 0x0f, 0x03, 0x0a, 0xf6, 0x13, 0xee, 0x10, 0xf9, 0xec, 0x0b,
  0xff, 0xec, 0xed, 0xf7, 0x09, 0xf1, 0xfc, 0xf0, 0x07, 0xf0, 0xfd, 0xf5,
  0x07, 0x0b, 0xec, 0xee, 0x0a, 0xfa, 0xec, 0xf0, 0x0d, 0x0a, 0x05, 0xf8,
  0x00, 0x03, 0x11, 0xef, 0xf8, 0x08, 0x10, 0x0d, 0xfa, 0x0b, 0xf3, 0xed,
  0xf9, 0x13, 0x0c, 0xee, 0xf8, 0xfa, 0xf8, 0x0e, 0xee, 0xec, 0xfe, 0xee,
  0xf4, 0xf6, 0x0b, 0xf4, 0x09, 0x05, 0xf0, 0xf5, 0x09, 0xea, 0xeb, 0x0e,
  0x01, 0x0c, 0x05, 0xfa, 0x0b, 0xea, 0x0b, 0xfa, 0x14, 0x01, 0x12, 0x05,
  0x08, 0xf2, 0xfd, 0x1e, 0x13, 0x16, 0x05, 0x0f, 0x00, 0x0c, 0x09, 0x02,
  0x00, 0xfd, 0x16, 0x0c, 0xfb, 0xf3, 0xe5, 0xfa, 0x07, 0xe4, 0xe8, 0x05,
  0xfd, 0x00, 0x07, 0xfd, 0xfa, 0xed, 0xec, 0xf5, 0x0b, 0xf7, 0xfc, 0x09,
  0x06, 0xfd, 0xf7, 0xf4, 0x0c, 0x09, 0x13, 0x0f, 0x07, 0xf5, 0x05, 0x06,
  0x1a, 0x12, 0x22, 0x0e, 0x06, 0x15, 0x15, 0x21, 0x1c, 0x0b, 0x0e, 0x23,
  0x09, 0x08, 0x1c, 0x13, 0x14, 0xf9, 0x08, 0x0f, 0x13, 0x00, 0x01, 0x14,
  0x11, 0x05, 0x22, 0x00, 0x06, 0x1b, 0x0a, 0x0f, 0x0d, 0x1f, 0x21, 0x46,
  0x51, 0x48, 0x61, 0x56, 0x54, 0x54, 0x4c, 0x42, 0x60, 0x4f, 0x61, 0x40,
  0x41, 0x5b, 0x49, 0x35, 0x57, 0x3d, 0x3f, 0x45, 0x3b, 0x1d, 0x1f, 0x30,
  0x37, 0x0e, 0x33, 0x11, 0x1c, 0x26, 0x2a, 0x17, 0x1e, 0x15, 0x0d, 0x25,
  0x1f, 0x19, 0x0c, 0x15, 0x20, 0x11, 0x0b, 0x1a, 0x04, 0x0c, 0x0b, 0xfd,
  0x04, 0xfa, 0xf9, 0x01, 0xfa, 0x1c, 0x18, 0xf7, 0x14, 0x1d, 0x0e, 0x11,
  0x1c, 0xfb, 0x16, 0x06, 0xfa, 0x09, 0x14, 0xf6, 0x17, 0x02, 0xfe, 0x11,
  0x19, 0x00, 0x10, 0x19, 0x13, 0x18, 0x0a, 0x0f, 0x09, 0xf1, 0xfd, 0xe7,
  0x00, 0xf0, 0xf0, 0xf4, 0xd9, 0xde, 0xe9, 0xd6, 0xe4, 0xdd, 0xd7, 0xf8,
  0xea, 0xe3, 0xf2, 0xf4, 0xf5, 0xdd, 0xef, 0xfb, 0xee, 0x11, 0xee, 0xf7,
  0x10, 0x10, 0x01, 0xef, 0x11, 0x12, 0x07, 0xf8, 0x0c, 0xec, 0xf8, 0x03,
  0xff, 0x10, 0xef, 0xf6, 0x13, 0x0d, 0xf0, 0xed, 0xf8, 0x08, 0x09, 0x02,
  0x13, 0x02, 0xfa, 0xff, 0xf1, 0x0d, 0x0d, 0x0d, 0x09, 0xee, 0xf5, 0x06,
  0x11, 0xfe, 0x0f, 0xf2, 0xfb, 0x0c, 0xf2, 0xed, 0xf1, 0xf4, 0xf9, 0x03,
  0xec, 0xff, 0x0b, 0x09, 0xfb, 0x0d, 0xfe, 0xed, 0xec, 0x08, 0x12, 0x0e,
  0xf7, 0x02, 0x01, 0xef, 0x0e, 0xfc, 0xf0, 0x12, 0x10, 0xf1, 0xfe, 0xfc,
  0xee, 0x04, 0xee, 0xef, 0xeb, 0xf2, 0xf7, 0xfc, 0x09, 0xf8, 0xec, 0xfc,
  0x0a, 0xf9, 0xeb, 0xed, 0xec, 0xf1, 0xfa, 0x05, 0x04, 0x08, 0xf8, 0xeb,
  0xef, 0xfe, 0xf0, 0xf5, 0x07, 0x03, 0x0d, 0xf6, 0x12, 0x0a, 0xec, 0xec,
  0x03, 0x01, 0x11, 0xf2, 0xec, 0x08, 0x0f, 0x10, 0x0a, 0xf9, 0x0d, 0xfc,
  0xf6, 0x02, 0xff, 0x12, 0xec, 0xed, 0x12, 0xf6, 0xf5, 0x04, 0xf5, 0xf0,
  0xfe, 0xf3, 0xf8, 0x0e, 0x07, 0x02, 0x08, 0xfc, 0x00, 0x03, 0x0e, 0x0d,
  0xf7, 0x07, 0x03, 0x0d, 0xec, 0x0e, 0xed, 0xf0, 0x01, 0x0a, 0xef, 0xff,
  0xf2, 0x0e, 0xfb, 0x00, 0xfa, 0x06, 0xff, 0x08, 0xf3, 0xf1, 0xfc, 0xfe,
  0x10, 0x00, 0xfd, 0x09, 0x09, 0x05, 0x13, 0x06, 0xfb, 0x0f, 0xfa, 0xeb,
  0xfd, 0xff, 0xf4, 0x05, 0x0f, 0xf9, 0x08, 0xee, 0xf0, 0xfa, 0x10, 0xfb,
  0xf7, 0xec, 0x07, 0x06, 0xf9, 0xf2, 0xf4, 0xf9, 0x0b, 0x05, 0x10, 0xfd,
  0xed, 0x03, 0xed, 0xf2, 0xef, 0x10, 0x01, 0xed, 0x05, 0xfd, 0xea, 0x00,
  0xf4, 0x06, 0xe3, 0xe1, 0xed, 0xe7, 0xfe, 0xe5, 0x00, 0xe5, 0xee, 0xf8,
  0xde, 0xf9, 0xe2, 0xf6, 0xe0, 0xe9, 0xee, 0xe3, 0xea, 0xde, 0xf0, 0xdb,
  0xe7, 0xe3, 0xdd, 0xe0, 0xef, 0xdc, 0xdb, 0xc6, 0xc0, 0xc2, 0xb9, 0xca,
  0xd6, 0xd1, 0xd7, 0xbb, 0xce, 0xbb, 0xca, 0xdc, 0xdd, 0xcc, 0xcf, 0xbf,
  0xc0, 0xd3, 0xe5, 0xe6, 0xe4, 0xea, 0xd9, 0xe1, 0xe8, 0x01, 0x0a, 0xfa,
  0x1f, 0x1f, 0x25, 0x4e, 0x41, 0x40, 0x3d, 0x66, 0x68, 0x4c, 0x68, 0x5a,
  0x6b, 0x67, 0x62, 0x6a, 0x56, 0x69, 0x5b, 0x58, 0x5f, 0x51, 0x49, 0x57,
  0x4b, 0x4a, 0x55, 0x4f, 0x33, 0x3b, 0x1f, 0x36, 0x1c, 0x29, 0x26, 0x1c,
  0x03, 0xfd, 0x06, 0x1a, 0x1c, 0x04, 0xfb, 0xff, 0xf2, 0x07, 0x0f, 0x0b,
  0xfa, 0xfd, 0xfc, 0x11, 0x0c, 0xfd, 0x02, 0xf6, 0xf1, 0x06, 0xf7, 0xfd,
  0xf0, 0x00, 0xeb, 0xf6, 0x11, 0x04, 0x10, 0xf9, 0xfa, 0x08, 0xee, 0xed,
  0x0a, 0xed, 0xf2, 0x13, 0x0f, 0xfa, 0x02, 0x0e, 0x06, 0x02, 0x0b, 0xf6,
  0xfc, 0x0c, 0x0e, 0xed, 0x01, 0xf9, 0xed, 0x07, 0xf3, 0x09, 0xfe, 0x13,
  0x0a, 0xf1, 0xfa, 0x12, 0x02, 0xf3, 0xff, 0x15, 0x11, 0xff, 0x0c, 0xfc,
  0x12, 0x0e, 0x05, 0xf4, 0x09, 0x10, 0xf7, 0xf9, 0xf4, 0x0d, 0x03, 0x0c,
  0x0e, 0xfd, 0xf5, 0x0c, 0x0e, 0x11, 0x01, 0x16, 0xfd, 0x08, 0x0b, 0xf7,
  0xfe, 0xfe, 0xff, 0xf9, 0x13, 0xf2, 0x09, 0x01, 0xf9, 0xf6, 0xff, 0x04,
  0xf2, 0xed, 0x13, 0x0d, 0x11, 0x07, 0x01, 0xf7, 0xec, 0x13, 0x0b, 0xee,
  0x0d, 0xfa, 0x03, 0xee, 0xff, 0x0d, 0x11, 0x08, 0xfa, 0xfc, 0xf8, 0xef,
  0x00, 0xf9, 0x0c, 0xfd, 0x07, 0x0d, 0x08, 0x08, 0x10, 0xef, 0xf8, 0xee,
  0xec, 0x01, 0x07, 0x07, 0x0d, 0x06, 0x10, 0xf1, 0xfe, 0x13, 0xfd, 0xf9,
  0x09, 0x0e, 0xee, 0x08, 0x11, 0xf4, 0x0f, 0xf5, 0xf4, 0x0b, 0x0c, 0x09,
  0x08, 0xf9, 0xec, 0x04, 0xf5, 0x13, 0x09, 0xf7, 0x11, 0x0f, 0x09, 0x02,
  0x10, 0xf6, 0xec, 0xf9, 0xf1, 0x09, 0xf0, 0x06, 0xec, 0xed, 0xf0, 0x00,
  0xfb, 0xeb, 0xee, 0x0a, 0xf5, 0xec, 0xf0, 0xf0, 0x00, 0x11, 0x0d, 0x0f,
  0xf5, 0xf6, 0xf5, 0xf1, 0x03, 0xf1, 0x04, 0xf7, 0xf1, 0x0e, 0x06, 0x07,
  0x13, 0xf2, 0x0c, 0x13, 0xec, 0x09, 0x02, 0x0e, 0x0d, 0xf5, 0xef, 0x09,
  0xf2, 0x02, 0xf8, 0x01, 0x12, 0xf0, 0xf5, 0xfa, 0xf0, 0x08, 0x0f, 0x0a,
  0xf8, 0xec, 0xf5, 0x09, 0x01, 0x02, 0xfa, 0x12, 0x0c, 0x03, 0x05, 0xef,
  0x06, 0x0e, 0xed, 0xf8, 0x02, 0x03, 0x0d, 0xfd, 0x11, 0xf7, 0x0b, 0xfc,
  0x03, 0x11, 0xf5, 0xfe, 0xf1, 0xfe, 0xf8, 0x11, 0xf1, 0xfd, 0xed, 0xec,
  0x0d, 0xf0, 0x11, 0x09, 0xfc, 0xf4, 0x01, 0x01, 0x09, 0x02, 0xf9, 0x00,
  0xfa, 0xf6, 0xef, 0xf1, 0x0b, 0xf2, 0xfe, 0x07, 0x33, 0x24, 0x22, 0x1a,
  0x27, 0x21, 0x29, 0x2b, 0x25, 0x27, 0x24, 0x00, 0x12, 0x0f, 0x18, 0x0f,
  0xfb, 0x09, 0x0a, 0xf5, 0xe7, 0xf3, 0xfb, 0x03, 0x04, 0xfe, 0xe2, 0xec,
  0xff, 0xf2, 0xe7, 0xfe, 0x05, 0xea, 0x02, 0xf6, 0x09, 0x07, 0xec, 0xfb,
  0xf6, 0x03, 0xeb, 0xfb, 0xf0, 0xfb, 0xfd, 0x08, 0x01, 0xed, 0xfa, 0xf5,
  0x0c, 0xee, 0x13, 0xfd, 0x0a, 0x08, 0xf8, 0xf8, 0xf8, 0xf6, 0xed, 0xf7,
  0xdf, 0xe1, 0xee, 0xfb, 0xfc, 0xe3, 0xe2, 0xee, 0x09, 0x12, 0x2b, 0x2b,
  0x40, 0x2c, 0x28, 0x4c, 0x4d, 0x26, 0x41, 0x3a, 0x28, 0x15, 0x36, 0x24,
  0x12, 0x23, 0x12, 0x15, 0x24, 0x20, 0x17, 0x2b, 0x15, 0x1d, 0xef, 0xf0,
  0xf0, 0xea, 0xc3, 0xc1, 0xbf, 0xdd, 0xda, 0xdd, 0xd3, 0xd4, 0xdc, 0xe1,
  0xd7, 0xd6, 0xd5, 0xce, 0xe4, 0xd1, 0xcc, 0xcc, 0xef, 0xd5, 0xdb, 0xfa,
  0xf9, 0xe2, 0xf3, 0xf0, 0xe7, 0xfa, 0xf1, 0xf5, 0x02, 0xf7, 0xdf, 0xfc,
  0xf0, 0x05, 0xf4, 0xeb, 0xf5, 0xf7, 0x04, 0xe5, 0xf0, 0xfb, 0xee, 0xe5,
  0xf7, 0x01, 0x05, 0x0c, 0x0d, 0x01, 0xf4, 0x0c, 0x01, 0x07, 0xf4, 0x0f,
  0xe9, 0x05, 0xfa, 0x0e, 0x0a, 0xf1, 0x02, 0x05, 0x02, 0x0e, 0xf3, 0x0a,
  0x08, 0xf4, 0x02, 0x09, 0xfd, 0x03, 0x11, 0x0c, 0x03, 0xfc, 0x0e, 0x02,
  0x07, 0x21, 0x17, 0x2b, 0x36, 0x14, 0x2e, 0x2c, 0x14, 0x2f, 0x31, 0x33,
  0x33, 0x39, 0x15, 0x25, 0x32, 0x25, 0x15, 0x2e, 0xf1, 0x01, 0x0f, 0x04,
  0x10, 0xfb, 0xf0, 0x01, 0xf0, 0x02, 0x06, 0xf3, 0x05, 0xf2, 0x13, 0x0a,
  0xff, 0xff, 0x11, 0x08, 0x14, 0x05, 0xf7, 0x0a, 0xfe, 0x00, 0x13, 0x0a,
  0xf2, 0x10, 0x11, 0xfd, 0x14, 0xef, 0x0c, 0x11, 0x13, 0xf6, 0x12, 0x05,
  0x04, 0x0a, 0xf1, 0xfa, 0xfd, 0xf0, 0x12, 0x10, 0xf0, 0xf7, 0xf0, 0x00,
  0xf1, 0x0d, 0x10, 0xfa, 0xfe, 0xef, 0xef, 0xf8, 0xf3, 0x11, 0xec, 0x02,
  0xf4, 0x10, 0xf9, 0x04, 0xf9, 0x04, 0x00, 0xf7, 0xeb, 0xec, 0xf9, 0x03,
  0x05, 0xf5, 0xf2, 0x0b, 0xf2, 0xfd, 0xfa, 0x09, 0xf8, 0x0e, 0x0c, 0xf9,
  0x0e, 0x00, 0x00, 0xf4, 0x03, 0xf9, 0x06, 0x0d, 0x12, 0x07, 0x00, 0x09,
  0xff, 0xec, 0x08, 0xf4, 0xf9, 0x02, 0xf8, 0x03, 0xfe, 0xff, 0x0c, 0x02,
  0xfc, 0xf0, 0x0d, 0x04, 0x11, 0x00, 0xf7, 0xf8, 0xf1, 0xed, 0x0e, 0xfa,
  0x11, 0x0d, 0x10, 0x06, 0x07, 0xf1, 0x11, 0x09, 0xee, 0x01, 0xec, 0xfb,
  0xf0, 0x00, 0xf7, 0x10, 0xf6, 0x08, 0xf2, 0x07, 0x03, 0xfb, 0xf8, 0xf2,
  0x12, 0x10, 0xf4, 0x0a, 0xfb, 0xf3, 0x03, 0xfa, 0x05, 0x00, 0xff, 0x01,
  0xf2, 0x0b, 0x11, 0xf8, 0xef, 0x10, 0xec, 0xff, 0xfd, 0x0c, 0xfd, 0x12,
  0xee, 0xfd, 0xf7, 0xfd, 0xf7, 0xec, 0x12, 0xf9, 0xee, 0xfc, 0xf1, 0xef,
  0xfe, 0x09, 0xf6, 0x02, 0xf4, 0xfd, 0xff, 0x0e, 0xf6, 0x08, 0x0f, 0x02,
  0xf2, 0xf6, 0x12, 0xf6, 0x00, 0x0c, 0xfa, 0xfa, 0xeb, 0x0b, 0x0f, 0x13,
  0x0b, 0xff, 0xfd, 0x0c, 0x0d, 0x01, 0xf8, 0x10, 0xfe, 0xff, 0x05, 0xf2,
  0x13, 0x08, 0xf1, 0xef, 0xfc, 0xf7, 0xf1, 0xf1, 0xfe, 0x06, 0x13, 0x06,
  0x0e, 0xf8, 0xf2, 0xfb, 0xfe, 0xeb, 0xf2, 0x07, 0xf4, 0x12, 0xfc, 0xfb,
  0xff, 0xef, 0x0c, 0xf7, 0x04, 0xf5, 0xed, 0xee, 0xed, 0x13, 0x0a, 0xfd,
  0x04, 0xec, 0xed, 0x05, 0xff, 0xec, 0x06, 0xf6, 0xf4, 0xf7, 0xfa, 0xf0,
  0xf7, 0x05, 0x0c, 0xf4, 0xfe, 0x12, 0xed, 0xef, 0xf6, 0xf8, 0xeb, 0xfc,
  0x12, 0x01, 0x06, 0x0f, 0x10, 0x13, 0xee, 0x0b, 0xf9, 0x03, 0x13, 0xf5,
  0x03, 0xfb, 0x10, 0x03, 0x0a, 0xee, 0xee, 0xff, 0xec, 0x01, 0xfd, 0x05,
  0x12, 0x09, 0x11, 0x0e, 0xeb, 0x0c, 0x09, 0x0c, 0x04, 0x10, 0x03, 0x0f,
  0x0e, 0xfb, 0x01, 0x01, 0x04, 0x03, 0x0a, 0x07, 0x04, 0xfc, 0xf6, 0xfa,
  0xf0, 0xf1, 0x12, 0x0a, 0xf2, 0xf7, 0x11, 0xfa, 0x00, 0x0a, 0x0b, 0xfb,
  0x06, 0xf8, 0x07, 0xf3, 0x05, 0xfd, 0x09, 0xf7, 0xf0, 0x11, 0xfa, 0x0d,
  0x0b, 0x02, 0xf0, 0xef, 0x04, 0x0a, 0xee, 0xf9, 0x0d, 0xf5, 0xf7, 0x01,
  0x0c, 0xef, 0xeb, 0xeb, 0xec, 0xfa, 0x0f, 0xf3, 0xfe, 0xf3, 0xf6, 0x03,
  0x00, 0x00, 0xff, 0xf6, 0xff, 0xf0, 0xfb, 0xfd, 0xf5, 0xfe, 0x0c, 0xfb,
  0x10, 0xf3, 0x06, 0xf3, 0x0d, 0xed, 0xfd, 0x06, 0xf6, 0x07, 0xf8, 0x0b,
  0x02, 0xf7, 0xeb, 0x06, 0x08, 0x0e, 0xff, 0xec, 0x0f, 0x00, 0x0b, 0x00,
  0xf4, 0x0e, 0x03, 0xfc, 0x0c, 0x0b, 0x00, 0xf5, 0xf8, 0x0a, 0xfe, 0x07,
  0x00, 0x0c, 0xff, 0xf0, 0x05, 0x08, 0xf4, 0xfc, 0xec, 0x11, 0xed, 0x0d,
  0xfa, 0x0b, 0xee, 0xfa, 0xee, 0xff, 0xfc, 0x0c, 0xeb, 0xfe, 0x05, 0xee,
  0x0f, 0x10, 0xff, 0xed, 0xf6, 0x09, 0xfa, 0xfb, 0xf8, 0xf0, 0x06, 0xec,
  0xfc, 0x00, 0x0c, 0x0f, 0xfd, 0xf7, 0xfe, 0xf3, 0xf8, 0xf3, 0x07, 0x07,
  0xff, 0xeb, 0x10, 0x0c, 0xfa, 0xf1, 0xf5, 0x09, 0xff, 0x12, 0xed, 0x0b,
  0x0b, 0x00, 0x08, 0xfd, 0x05, 0xfb, 0xfd, 0xf4, 0xed, 0x08, 0x01, 0xfe,
  0x02, 0xf9, 0x00, 0xf0, 0xec, 0x12, 0xec, 0x11, 0xf0, 0x0b, 0xf6, 0x09,
  0x03, 0x11, 0x02, 0x02, 0xf7, 0x02, 0xeb, 0xf0, 0x01, 0xf4, 0x10, 0x10,
  0x10, 0x02, 0x0a, 0x0d, 0x0b, 0xfa, 0x06, 0x09, 0xfa, 0xec, 0x0d, 0x08,
  0xef, 0xf4, 0x0c, 0x01, 0x11, 0x06, 0xee, 0xf3, 0xfd, 0xf6, 0xea, 0xec,
  0xfb, 0xf0, 0x06, 0x00, 0x00, 0x0a, 0xf1, 0xe9, 0x07, 0xee, 0x0e, 0x0c,
  0xfc, 0xeb, 0x11, 0x00, 0xec, 0xf3, 0xff, 0xf3, 0xf9, 0x06, 0x0b, 0x02,
  0xed, 0xff, 0x0c, 0xfa, 0xe9, 0xff, 0xed, 0xf1, 0xf2, 0x0e, 0xfa, 0xea,
  0xf9, 0x11, 0xf6, 0x00, 0xfd, 0x01, 0xf8, 0x0e, 0xf8, 0xf0, 0xf5, 0x00,
  0xfa, 0x04, 0xeb, 0x05, 0x11, 0x03, 0xf8, 0xec, 0xe9, 0x05, 0xf5, 0x08,
  0xfd, 0xf4, 0xf7, 0xf6, 0xf3, 0xed, 0xff, 0x05, 0xed, 0xff, 0xe7, 0x08,
  0xe2, 0x00, 0xf9, 0xe3, 0x07, 0x0c, 0xf8, 0xeb, 0x14, 0x0c, 0xef, 0x13,
  0x0d, 0x14, 0x05, 0x01, 0x13, 0x14, 0x11, 0x1a, 0x2c, 0x23, 0x14, 0x0e,
  0x22, 0x26, 0x12, 0x1c, 0x12, 0x18, 0x18, 0x1f, 0x23, 0x2c, 0x2d, 0x0a,
  0x0b, 0x27, 0x12, 0x1b, 0x2d, 0x26, 0x3f, 0x39, 0x1d, 0x25, 0x2b, 0x22,
  0x39, 0x39, 0x3d, 0x4b, 0x3c, 0x3c, 0x4b, 0x2e, 0x37, 0x3c, 0x48, 0x41,
  0x2c, 0x4a, 0x36, 0x27, 0x41, 0x39, 0x3f, 0x42, 0x11, 0x1e, 0x07, 0xff,
  0xd6, 0xc8, 0xd4, 0xc2, 0xb6, 0xaf, 0xc2, 0xb6, 0xab, 0xb9, 0xba, 0xa3,
  0xc3, 0xad, 0xc4, 0xbd, 0xad, 0xd6, 0xd0, 0xc6, 0xc8, 0xcd, 0xef, 0xd3,
  0xee, 0xf3, 0xf2, 0xf2, 0xef, 0xf6, 0x15, 0xfd, 0x0f, 0x14, 0x16, 0xfc,
  0x14, 0x20, 0x16, 0x00, 0x13, 0xf9, 0x0f, 0x09, 0x01, 0x0a, 0x05, 0x1e,
  0x1e, 0x18, 0x0d, 0x18, 0x1f, 0x11, 0x1f, 0xff, 0x01, 0x0e, 0x19, 0x1c,
  0x1c, 0xf7, 0x12, 0x10, 0x1b, 0x00, 0x07, 0x13, 0x03, 0xfe, 0xfd, 0xf7,
  0x00, 0x00, 0x08, 0xf3, 0x00, 0x14, 0x0b, 0x05, 0x10, 0x11, 0x0e, 0x06,
  0x1a, 0x08, 0x17, 0x12, 0x1c, 0x19, 0x1a, 0x17, 0x12, 0x05, 0xfb, 0x04,
  0xfe, 0x1b, 0x00, 0x0a, 0xf7, 0xf6, 0x16, 0xfb, 0x05, 0xf8, 0xf3, 0xf0,
  0x00, 0x12, 0x0a, 0x05, 0xf9, 0x08, 0xfe, 0xfe, 0x09, 0x0f, 0xec, 0xed,
  0xf6, 0xea, 0x07, 0x0a, 0xed, 0xf6, 0x03, 0xff, 0xec, 0xfd, 0x0f, 0xf9,
  0x0e, 0x0a, 0x01, 0x08, 0x11, 0x0f, 0x08, 0xf0, 0x00, 0xea, 0xf6, 0x0c,
  0x0f, 0xf0, 0x0c, 0x0f, 0x0a, 0x0e, 0xf5, 0xfa, 0x03, 0xf6, 0x12, 0xff,
  0xeb, 0xf8, 0x11, 0xf9, 0x0e, 0xf7, 0xf2, 0xee, 0xf3, 0x03, 0xf0, 0xf5,
  0xfa, 0xef, 0xf8, 0xfb, 0xfe, 0xec, 0xf8, 0xf5, 0xfd, 0x05, 0x03, 0x05,
  0x0a, 0xf7, 0x03, 0x0e, 0x05, 0x04, 0x00, 0x13, 0x12, 0xff, 0xf8, 0xf7,
  0xfd, 0xfe, 0xfd, 0x0b, 0x10, 0x00, 0xf5, 0x0a, 0x11, 0x11, 0x06, 0xf7,
  0xf5, 0x06, 0xee, 0xfc, 0x02, 0x02, 0xf9, 0xed, 0xfa, 0xeb, 0x09, 0x01,
  0xf5, 0xec, 0x05, 0x10, 0xf5, 0x02, 0x11, 0x08, 0x10, 0xf4, 0xfd, 0x08,
  0xf8, 0xf7, 0xfe, 0x10, 0x0c, 0x11, 0x0d, 0x12, 0x09, 0x10, 0x12, 0x12,
  0x0d, 0x08, 0x0f, 0x13, 0x07, 0xfa, 0x02, 0xfd, 0xfd, 0xfc, 0x01, 0xfc,
  0xeb, 0xf5, 0x11, 0x05, 0x0d, 0xf1, 0xf6, 0x0f, 0x09, 0x06, 0xec, 0xef,
  0xf0, 0xf4, 0xeb, 0x11, 0xff, 0x0c, 0xff, 0xf1, 0xee, 0x01, 0x0a, 0x07,
  0xfc, 0xec, 0xf8, 0xff, 0x05, 0x02, 0x0f, 0x02, 0x08, 0xfb, 0xf5, 0x0e,
  0x08, 0xf0, 0xf2, 0xf6, 0xf7, 0xf2, 0x02, 0x08, 0xf8, 0xf0, 0xed, 0xf0,
  0xfd, 0x10, 0xf1, 0xfb, 0x06, 0xfc, 0xf2, 0xf2, 0xfa, 0xeb, 0xfb, 0xff,
  0xeb, 0xfd, 0xf6, 0xf8, 0xff, 0x05, 0x09, 0xf7, 0x01, 0x03, 0x05, 0x0f,
  0xf5, 0x06, 0xf2, 0xec, 0x0e, 0xf8, 0x0c, 0x07, 0xfb, 0xee, 0x08, 0x08,
  0x08, 0x01, 0x0f, 0x14, 0x04, 0x07, 0x13, 0xfb, 0x16, 0x11, 0xf8, 0x10,
  0xfc, 0x11, 0x07, 0x18, 0xfc, 0x0b, 0xfe, 0x11, 0xfb, 0xf7, 0x00, 0x08,
  0x09, 0x17, 0x1d, 0x18, 0x15, 0x24, 0x14, 0x21, 0x27, 0x20, 0x34, 0x1b,
  0x1c, 0x17, 0x2e, 0x30, 0x08, 0x2f, 0x15, 0x1d, 0x0d, 0x0a, 0x02, 0x04,
  0x01, 0x16, 0x15, 0x1f, 0x00, 0xfc, 0x17, 0x03, 0x04, 0x0a, 0x1c, 0x09,
  0x1a, 0x26, 0x0f, 0x16, 0x23, 0x16, 0x1e, 0xff, 0x0c, 0xf6, 0xf4, 0x03,
  0xf4, 0xde, 0xf3, 0xe4, 0xc7, 0xec, 0xe4, 0xc9, 0xc6, 0xdd, 0xde, 0xe8,
  0xef, 0xeb, 0xda, 0xf9, 0xe1, 0xea, 0xe9, 0xfc, 0x02, 0xe7, 0xd9, 0xe2,
  0xd9, 0xd2, 0xe3, 0xd2, 0xbe, 0xc5, 0xca, 0xe1, 0xdd, 0xe0, 0xd0, 0xbd,
  0xdc, 0xbe, 0xc1, 0xcd, 0xd8, 0xe8, 0xcc, 0xf1, 0xd2, 0xf2, 0xef, 0xf3,
  0x04, 0xf6, 0x02, 0x09, 0xf2, 0xfb, 0xef, 0xf3, 0x03, 0xff, 0xea, 0x10,
  0x03, 0x09, 0x0f, 0x01, 0xf2, 0xef, 0xf3, 0x08, 0x04, 0xff, 0x14, 0x17,
  0xf4, 0x16, 0x00, 0x0e, 0x06, 0x00, 0x15, 0xf3, 0x05, 0x00, 0x09, 0xf7,
  0x04, 0x11, 0x17, 0xff, 0xfe, 0x10, 0x03, 0xf4, 0x09, 0x0a, 0x10, 0x15,
  0x10, 0xfb, 0x09, 0x04, 0xfe, 0x16, 0x05, 0xff, 0xfd, 0x03, 0x02, 0x1e,
  0x25, 0x05, 0x06, 0x0d, 0x20, 0x17, 0x14, 0x08, 0x21, 0x1f, 0x11, 0x23,
  0x10, 0x08, 0xfe, 0x19, 0x20, 0x11, 0x24, 0x0d, 0x0c, 0x09, 0x07, 0x27,
  0x09, 0x11, 0x06, 0x25, 0x1f, 0x0c, 0x21, 0x08, 0x17, 0x04, 0x01, 0x0c,
  0x04, 0x13, 0xfa, 0x0f, 0x0c, 0x0a, 0xe5, 0xf9, 0xf8, 0xe9, 0xe5, 0xe5,
  0xea, 0x07, 0xf9, 0xe7, 0x01, 0x0f, 0x03, 0x10, 0xfe, 0xf8, 0x0e, 0xfc,
  0xfa, 0xf1, 0x10, 0xf1, 0x04, 0xea, 0xee, 0xf2, 0xd9, 0xd4, 0xda, 0xd9,
  0xe9, 0xd2, 0xf3, 0xe0, 0xd1, 0xea, 0xdf, 0xe4, 0xe1, 0xed, 0xd0, 0xef,
  0xd0, 0xf0, 0xee, 0xe5, 0xed, 0xe0, 0xdc, 0xf2, 0xf0, 0x05, 0xef, 0x0f,
  0x08, 0x11, 0x1c, 0x3a, 0x47, 0x37, 0x48, 0x4f, 0x38, 0x4b, 0x56, 0x5b,
  0x5a, 0x50, 0x47, 0x47, 0x4c, 0x3d, 0x36, 0x52, 0x43, 0x2f, 0x37, 0x21,
  0x05, 0xf7, 0xd7, 0xe5, 0xd1, 0xd1, 0xcc, 0xd0, 0xd3, 0xce, 0xc2, 0xd6,
  0xb1, 0xb4, 0xc3, 0xb5, 0xd0, 0xc0, 0xc2, 0xd4, 0xcc, 0xe8, 0xd2, 0xf8,
  0xf8, 0xd9, 0x00, 0xdf, 0xf1, 0xe7, 0xf2, 0xf4, 0xf2, 0x0a, 0xfc, 0xed,
  0x07, 0x03, 0x00, 0x05, 0x0e, 0xff, 0x02, 0xea, 0x02, 0x00, 0xf5, 0x08,
  0x13, 0x0a, 0xf0, 0x14, 0x05, 0x04, 0x04, 0xf2, 0x0c, 0x17, 0x14, 0xf0,
  0xfc, 0x03, 0xfe, 0x15, 0x05, 0x09, 0xfa, 0x0a, 0xf9, 0x02, 0x04, 0x00,
  0x09, 0x1c, 0x0c, 0x02, 0x15, 0x17, 0x04, 0x17, 0x14, 0x09, 0x20, 0x07,
  0x2d, 0x1e, 0x33, 0x36, 0x2f, 0x30, 0x37, 0x18, 0x3c, 0x35, 0x40, 0x1f,
  0x1c, 0x3b, 0x3b, 0x38, 0x35, 0x16, 0x3a, 0x26, 0x1b, 0xfc, 0x02, 0x12,
  0x17, 0xef, 0xff, 0x0c, 0x01, 0x14, 0x06, 0x00, 0xfb, 0xf8, 0xf5, 0x06,
  0x15, 0x02, 0x05, 0x23, 0x0f, 0x13, 0x0f, 0x10, 0x01, 0x16, 0x14, 0x20,
  0x21, 0x1f, 0x13, 0x0c, 0x17, 0x20, 0x20, 0x22, 0x18, 0x1c, 0x36, 0x20,
  0x3d, 0x3f, 0x3e, 0x4f, 0x37, 0x49, 0x51, 0x69, 0x5c, 0x4f, 0x64, 0x59,
  0x62, 0x6d, 0x5b, 0x55, 0x56, 0x70, 0x55, 0x6a, 0x5e, 0x60, 0x5b, 0x59,
  0x4d, 0x4f, 0x3e, 0x38, 0x37, 0x40, 0x4d, 0x23, 0x19, 0x16, 0x16, 0x1b,
  0x0a, 0xee, 0xed, 0xf0, 0xec, 0xc8, 0xcb, 0xca, 0xbc, 0xa5, 0x98, 0xb5,
  0xb4, 0x9e, 0xa7, 0xa3, 0x9e, 0x83, 0x89, 0x81, 0xa6, 0x93, 0x89, 0x85,
  0x8f, 0xb6, 0xb2, 0xc9, 0xe1, 0xd6, 0xf0, 0xe7, 0x01, 0x00, 0x0c, 0xff,
  0xfd, 0xfd, 0x02, 0x18, 0xfa, 0x01, 0x16, 0x03, 0x07, 0x10, 0x13, 0xf9,
  0xfd, 0x0f, 0x03, 0xff, 0x17, 0xfd, 0x16, 0xfd, 0xf8, 0xf9, 0x0c, 0x09,
  0x15, 0x12, 0x07, 0xfc, 0x00, 0x02, 0x12, 0xfb, 0x08, 0x01, 0x0e, 0xf9,
  0x14, 0xfc, 0x10, 0xfe, 0x05, 0xfb, 0xfa, 0x1a, 0x13, 0xf6, 0x10, 0x0c,
  0xf5, 0xff, 0x0b, 0xfa, 0x0c, 0x00, 0x03, 0x12, 0x1a, 0x10, 0x1a, 0x05,
  0x15, 0x0f, 0xf9, 0x19, 0xfc, 0xf6, 0x15, 0xf7, 0x11, 0x1a, 0x17, 0x06,
  0x0a, 0x16, 0x18, 0x07, 0xf3, 0x16, 0x11, 0x16, 0x0a, 0xf3, 0x17, 0x0d,
  0xf7, 0xf7, 0xff, 0x0c, 0x04, 0x09, 0x14, 0x01, 0xf1, 0x04, 0xf0, 0xfc,
  0xfd, 0x0d, 0x07, 0x13, 0xfc, 0x12, 0x00, 0xff, 0x02, 0x02, 0xfe, 0x09,
  0x01, 0x05, 0xf4, 0xf1, 0xef, 0x08, 0x05, 0xf9, 0x0f, 0xf8, 0x0f, 0x05,
  0xf2, 0x0a, 0xf8, 0xfd, 0xf0, 0xef, 0xee, 0x09, 0xfc, 0x10, 0xef, 0xf6,
  0x11, 0xef, 0xee, 0xff, 0x0e, 0x02, 0x05, 0xef, 0x0c, 0x0d, 0xee, 0xf5,
  0x09, 0xf5, 0xef, 0xfb, 0x10, 0x07, 0xed, 0x11, 0xed, 0x04, 0xfc, 0xf8,
  0xf1, 0xf1, 0x0f, 0xf5, 0xee, 0xf9, 0xfa, 0xf1, 0xf6, 0xfe, 0x12, 0x10,
  0xee, 0xf1, 0xf7, 0x11, 0x03, 0xfd, 0xfe, 0x02, 0x0d, 0xee, 0x0b, 0x0c,
  0xfa, 0x10, 0xf9, 0xff, 0x04, 0xff, 0xec, 0x07, 0x06, 0xfd, 0xed, 0x12,
  0x03, 0xfa, 0xfd, 0x14, 0xf9, 0x10, 0x11, 0x13, 0xfe, 0xf0, 0x12, 0x0e,
  0xfe, 0xf9, 0x0a, 0xf7, 0xed, 0x09, 0xf0, 0x0e, 0x06, 0xfd, 0xfd, 0x06,
  0x0f, 0xf1, 0x01, 0x02, 0x03, 0x0f, 0xf8, 0xf7, 0xf1, 0xee, 0xfa, 0xf7,
  0xf8, 0x01, 0xef, 0xfa, 0xf6, 0x0d, 0x12, 0x07, 0x12, 0xf7, 0x03, 0xfa,
  0x0e, 0xf2, 0x13, 0x12, 0x05, 0x02, 0x03, 0x04, 0xfa, 0xf9, 0xf2, 0xf5,
  0x01, 0xf8, 0x0d, 0xed, 0xec, 0x01, 0xfa, 0x05, 0xfc, 0xf2, 0x0d, 0x0d,
  0xf1, 0xef, 0x10, 0x02, 0x08, 0xfb, 0xfb, 0xfd, 0xf4, 0xee, 0x0a, 0xf9,
  0xf1, 0xf7, 0x04, 0x14, 0xed, 0xfa, 0x06, 0x04, 0x0e, 0x08, 0x0a, 0x10,
  0x00, 0xed, 0x09, 0xfd, 0x08, 0x13, 0xef, 0xee, 0xfd, 0x10, 0xfd, 0x05,
  0xea, 0xf6, 0x0b, 0x0b, 0x05, 0xf2, 0x04, 0xfc, 0xf6, 0xf6, 0x0b, 0x18,
  0x18, 0x1c, 0xff, 0x0d, 0xf6, 0xfe, 0x04, 0x18, 0x1a, 0xf5, 0x1e, 0x06,
  0x15, 0x07, 0x18, 0x17, 0x32, 0x1b, 0x23, 0x19, 0x3e, 0x21, 0x34, 0x26,
  0x2d, 0x23, 0x1f, 0x3b, 0x31, 0x28, 0x2f, 0x27, 0x1e, 0x2b, 0x2e, 0x0d,
  0x21, 0x27, 0x1f, 0x1b, 0x27, 0x1b, 0x1b, 0x1c, 0x19, 0x06, 0x2e, 0x27,
  0x2f, 0x14, 0x27, 0x16, 0x05, 0x13, 0x24, 0xfd, 0x16, 0xfc, 0x05, 0xfb,
  0xf4, 0xeb, 0xdc, 0xd3, 0xe4, 0xc0, 0xc3, 0xc5, 0xc0, 0xbe, 0xd8, 0xd5,
  0xe1, 0xd9, 0xda, 0xee, 0xf6, 0xfb, 0xfe, 0xde, 0xe6, 0xf9, 0xe7, 0xe8,
  0xe1, 0xc1, 0xdd, 0xbe, 0xcb, 0xc2, 0xb5, 0xcf, 0xb5, 0xae, 0xd1, 0xb4,
  0xce, 0xce, 0xba, 0xca, 0xca, 0xc4, 0xe1, 0xdd, 0xe5, 0xd2, 0xf6, 0xee,
  0x04, 0xe7, 0xed, 0xed, 0x00, 0xf5, 0xe8, 0x02, 0xfd, 0x04, 0xfe, 0xfc,
  0x02, 0xf5, 0x0b, 0xfa, 0x11, 0xed, 0x02, 0xfd, 0x01, 0xf3, 0x0c, 0x13,
  0x03, 0x13, 0x02, 0xfe, 0xf5, 0x14, 0xf9, 0xf9, 0x04, 0x14, 0x14, 0x12,
  0xf6, 0x1c, 0x05, 0x11, 0x15, 0x0b, 0x09, 0xf7, 0x03, 0x0b, 0x04, 0x06,
  0x0b, 0x07, 0x18, 0x11, 0x1d, 0xf8, 0x06, 0x10, 0x08, 0x08, 0x17, 0x04,
  0x28, 0x0c, 0x25, 0x1b, 0x0f, 0x20, 0x18, 0x2b, 0x14, 0x1e, 0x0d, 0x21,
  0x20, 0x25, 0x04, 0x11, 0x06, 0x14, 0x12, 0x1b, 0x0d, 0x09, 0xee, 0x11,
  0xf4, 0x0a, 0x00, 0x07, 0x02, 0x12, 0x04, 0x0a, 0x11, 0x08, 0x00, 0xf6,
  0x02, 0xfc, 0x01, 0xfe, 0xef, 0xf9, 0xf9, 0x0b, 0x13, 0xfc, 0x0f, 0xfe,
  0xfd, 0x12, 0xec, 0x0f, 0xfc, 0x0a, 0xf0, 0x10, 0x12, 0xeb, 0xf7, 0x01,
  0x0b, 0xf5, 0xff, 0xf2, 0x00, 0x13, 0xfa, 0x0c, 0x05, 0xff, 0xed, 0x0e,
  0xed, 0xf0, 0x10, 0xff, 0xef, 0x0d, 0xfc, 0xfc, 0xed, 0xed, 0x12, 0x00,
  0x0e, 0x11, 0xf3, 0xf0, 0x10, 0xfb, 0xed, 0x09, 0x04, 0xee, 0xf1, 0xeb,
  0x04, 0x0b, 0xf5, 0xfa, 0x09, 0x05, 0xf4, 0x08, 0x10, 0xf4, 0xf1, 0x0f,
  0x06, 0x06, 0x0c, 0x0e, 0xfe, 0xf0, 0x0e, 0xf2, 0xfe, 0xf2, 0x02, 0xeb,
  0x06, 0xeb, 0x0d, 0xed, 0xf2, 0x05, 0x03, 0xfa, 0xf4, 0xf0, 0x01, 0x0d,
  0xfc, 0x10, 0xed, 0xff, 0x01, 0x0c, 0xf5, 0x05, 0xfd, 0x0f, 0xed, 0xf7,
  0x04, 0xfe, 0xf6, 0x06, 0xf7, 0x06, 0xf8, 0xee, 0x0f, 0xec, 0x04, 0xfd,
  0xee, 0xfe, 0xf1, 0xf1, 0x0f, 0xeb, 0x02, 0xf3, 0x13, 0xff, 0xfc, 0xf0,
  0x01, 0x04, 0xf7, 0xfa, 0x04, 0x08, 0xec, 0x10, 0xfc, 0xf0, 0xef, 0xee,
  0x04, 0x0a, 0x0f, 0xff, 0x01, 0x12, 0x00, 0x00, 0xef, 0x01, 0x07, 0x10,
  0xee, 0xef, 0xfa, 0xfb, 0x03, 0xf9, 0xf7, 0x0c, 0xf2, 0x02, 0x01, 0x10,
  0xfd, 0x02, 0x0d, 0x0c, 0x0c, 0x06, 0x0e, 0xfb, 0x04, 0x0e, 0x0e, 0xfd,
  0xf6, 0x08, 0xf2, 0x01, 0xf4, 0xee, 0x11, 0x0c, 0x41, 0x28, 0x1d, 0x25,
  0x21, 0x22, 0x14, 0x26, 0x1a, 0x1e, 0x1b, 0x18, 0x1f, 0x15, 0x13, 0xfe,
  0x03, 0xfa, 0x0b, 0xf6, 0xe9, 0xeb, 0x08, 0xf7, 0xef, 0xfd, 0xe2, 0xe8,
  0xf7, 0xfb, 0xf5, 0xfe, 0x03, 0x15, 0x17, 0x1c, 0xf8, 0xfd, 0x15, 0x07,
  0x1b, 0x04, 0x02, 0x02, 0xf4, 0x07, 0xe6, 0xec, 0xee, 0xe3, 0xe4, 0xf3,
  0xea, 0xd5, 0xd2, 0xf0, 0xd7, 0xd5, 0xde, 0xc9, 0xdf, 0xd0, 0xe9, 0xd6,
  0xed, 0xe1, 0xe0, 0xcd, 0xe7, 0xd4, 0xe3, 0xd5, 0xdc, 0x03, 0x03, 0x22,
  0x25, 0x2f, 0x4a, 0x2a, 0x47, 0x44, 0x3f, 0x44, 0x4d, 0x57, 0x53, 0x47,
  0x2c, 0x4d, 0x31, 0x2b, 0x4c, 0x35, 0x42, 0x38, 0x16, 0x22, 0x11, 0xf9,
  0xd2, 0xd6, 0xb4, 0xb9, 0xc0, 0xaa, 0xc2, 0xa1, 0xb5, 0xb0, 0xb1, 0xae,
  0xb7, 0xc3, 0xb0, 0xc2, 0xb5, 0xcc, 0xba, 0xd7, 0xcb, 0xe4, 0xef, 0xd7,
  0xd5, 0xf4, 0xdf, 0xfc, 0xff, 0xf0, 0xfb, 0xfa, 0xf9, 0xee, 0xf4, 0xe2,
  0xef, 0x07, 0xfa, 0xf4, 0x01, 0x0b, 0x07, 0xfc, 0xf3, 0x0c, 0xfd, 0xf4,
  0xfe, 0x17, 0x16, 0xfe, 0x13, 0x0e, 0x17, 0x0d, 0x09, 0x02, 0xf3, 0xf4,
  0x00, 0xfd, 0x08, 0xf9, 0x02, 0x16, 0x1c, 0x06, 0x0b, 0x0d, 0x12, 0x18,
  0x1b, 0x05, 0x03, 0x12, 0x0b, 0x17, 0x24, 0x07, 0x29, 0x27, 0x2a, 0x0e,
  0x26, 0x20, 0x27, 0x1d, 0x37, 0x44, 0x37, 0x33, 0x3e, 0x43, 0x38, 0x29,
  0x4b, 0x2f, 0x25, 0x39, 0x2a, 0x2d, 0x38, 0x29, 0xef, 0x08, 0xf8, 0x0d,
  0xff, 0x0f, 0xef, 0xfb, 0xf3, 0xf3, 0x11, 0x13, 0xec, 0x08, 0xef, 0x0e,
  0x09, 0xff, 0x06, 0xfa, 0xed, 0xf0, 0xfb, 0x04, 0x03, 0x0c, 0x10, 0xff,
  0xf6, 0xf6, 0x0e, 0xfb, 0xef, 0x0c, 0x01, 0xf1, 0xfb, 0x11, 0xec, 0xf5,
  0x00, 0xf7, 0xf4, 0x02, 0xfa, 0xee, 0xf7, 0x08, 0x12, 0xfd, 0x0a, 0x06,
  0x06, 0x11, 0x12, 0x00, 0x0f, 0x01, 0xf7, 0xec, 0x09, 0x02, 0xff, 0x03,
  0x02, 0xfc, 0x0f, 0xf5, 0xec, 0x0c, 0xfd, 0xf0, 0x0a, 0xfb, 0xf5, 0x0b,
  0x06, 0xec, 0x0b, 0xfe, 0x00, 0xf6, 0x03, 0xee, 0xfb, 0xfa, 0x12, 0x0c,
  0xfe, 0xfb, 0xf6, 0x06, 0xf9, 0x0b, 0x05, 0x03, 0xfc, 0xf5, 0x0a, 0x06,
  0xfd, 0xfb, 0x01, 0x03, 0x09, 0xfe, 0x0a, 0xf4, 0xfd, 0x12, 0x0a, 0x09,
  0xed, 0xf4, 0x03, 0xef, 0xf9, 0xff, 0x0e, 0x03, 0x01, 0xf7, 0xf0, 0xee,
  0x07, 0xf3, 0xfa, 0xed, 0x0b, 0xf8, 0x0b, 0xec, 0x14, 0xfd, 0xf9, 0xff,
  0x01, 0xec, 0x07, 0xee, 0xec, 0x09, 0xf8, 0xf6, 0x14, 0xec, 0xfb, 0x0e,
  0x04, 0x13, 0x14, 0x0b, 0x02, 0x05, 0x07, 0xf6, 0xfe, 0x05, 0x0c, 0x0d,
  0xfb, 0xfb, 0xf1, 0x0a, 0xf3, 0x00, 0x0d, 0x04, 0x05, 0x0a, 0x07, 0x04,
  0xfb, 0x00, 0xf3, 0xec, 0xf3, 0x00, 0x09, 0x02, 0xf4, 0xfb, 0x11, 0xf6,
  0xfb, 0xfa, 0x11, 0xfe, 0x0c, 0x02, 0xf5, 0x05, 0x09, 0xee, 0x08, 0x04,
  0xf7, 0xee, 0xf6, 0x08, 0xee, 0xfe, 0x0b, 0x0f, 0xfc, 0xf8, 0x13, 0xf8,
  0x04, 0x0d, 0xf4, 0xf5, 0x01, 0xf1, 0xfd, 0x06, 0x08, 0x00, 0x02, 0x10,
  0x0a, 0xf3, 0xf7, 0x0b, 0x07, 0xf3, 0x13, 0xf6, 0xeb, 0x00, 0x04, 0xf4,
  0xfc, 0xf7, 0x05, 0xf4, 0x06, 0xf3, 0x0a, 0x10, 0x02, 0x02, 0xf1, 0x03,
  0xf4, 0xf7, 0xf1, 0x04, 0xeb, 0xec, 0xef, 0xff, 0x06, 0xfa, 0xf4, 0xfc,
  0x06, 0x0c, 0x11, 0xea, 0x04, 0x09, 0x0f, 0x11, 0x0e, 0x0f, 0xec, 0x02,
  0x0e, 0x01, 0xf8, 0x09, 0xf9, 0x0c, 0x01, 0x0b, 0x0d, 0x07, 0x07, 0xfd,
  0x0c, 0x06, 0xf5, 0xec, 0xfb, 0xf7, 0x0e, 0x03, 0xef, 0xff, 0xf2, 0x04,
  0x0a, 0x08, 0x12, 0x01, 0x06, 0xf7, 0xff, 0x11, 0x07, 0xf4, 0xf7, 0x07,
  0x0e, 0x0f, 0xf5, 0x07, 0x06, 0xf5, 0x02, 0x03, 0xf6, 0xeb, 0xf0, 0xf3,
  0xf1, 0xf6, 0x0a, 0x0a, 0x00, 0x07, 0x0b, 0xfa, 0xf0, 0xff, 0x0f, 0xfd,
  0x11, 0x13, 0x08, 0xfa, 0x0a, 0xfd, 0xf7, 0x08, 0x0a, 0x0b, 0xfa, 0x11,
  0x0d, 0x11, 0xff, 0xed, 0x11, 0xf1, 0xed, 0x0b, 0xfc, 0x02, 0x0f, 0xf4,
  0xf2, 0xf0, 0xf8, 0xfb, 0xf6, 0xf9, 0xff, 0xf1, 0xf7, 0x05, 0x07, 0xee,
  0x02, 0x02, 0xf2, 0xea, 0xf8, 0x03, 0xf8, 0x0c, 0x0a, 0xfd, 0x0f, 0xf4,
  0xf7, 0x0d, 0xf0, 0xfd, 0xfb, 0xee, 0x0f, 0xf8, 0x04, 0x12, 0xee, 0xef,
  0x08, 0x02, 0xff, 0xf4, 0x03, 0xeb, 0xf6, 0xf1, 0xf4, 0xf5, 0x02, 0xf0,
  0xeb, 0x0e, 0xf5, 0xfa, 0xf2, 0x03, 0xfc, 0xed, 0x00, 0x00, 0x0e, 0x00,
  0x18, 0x00, 0x08, 0x00, 0x07, 0x00, 0x0c, 0x00, 0x10, 0x00, 0x14, 0x00,
  0x0e, 0x00, 0x00, 0x00, 0x00, 0x00, 0x00, 0x09, 0x2c, 0x00, 0x00, 0x00,
  0x02, 0x00, 0x00, 0x00, 0x08, 0x00, 0x00, 0x00, 0x38, 0x00, 0x00, 0x00,
  0x17, 0x00, 0x00, 0x00, 0x73, 0x65, 0x71, 0x75, 0x65, 0x6e, 0x74, 0x69,
  0x61, 0x6c, 0x2f, 0x64, 0x65, 0x6e, 0x73, 0x65, 0x2f, 0x4d, 0x61, 0x74,
  0x4d, 0x75, 0x6c, 0x00, 0x02, 0x00, 0x00, 0x00, 0x14, 0x00, 0x00, 0x00,
  0xcc, 0x00, 0x00, 0x00, 0x0c, 0x00, 0x0c, 0x00, 0x00, 0x00, 0x00, 0x00,
  0x04, 0x00, 0x08, 0x00, 0x0c, 0x00, 0x00, 0x00, 0x18, 0x00, 0x00, 0x00,
  0x04, 0x00, 0x00, 0x00, 0x01, 0x00, 0x00, 0x00, 0x00, 0x00, 0x00, 0x00,
  0x00, 0x00, 0x00, 0x00, 0x00, 0x00, 0x00, 0x00, 0x01, 0x00, 0x00, 0x00,
  0x67, 0x0e, 0x03, 0x3c, 0x14, 0x00, 0x18, 0x00, 0x04, 0x00, 0x00, 0x00,
  0x08, 0x00, 0x0c, 0x00, 0x10, 0x00, 0x00, 0x00, 0x00, 0x00, 0x14, 0x00,
  0x14, 0x00, 0x00, 0x00, 0x44, 0x00, 0x00, 0x00, 0x01, 0x00, 0x00, 0x00,
  0x18, 0x00, 0x00, 0x00, 0x44, 0x00, 0x00, 0x00, 0x04, 0x00, 0x00, 0x00,
  0x02, 0x00, 0x00, 0x00, 0xff, 0xff, 0xff, 0xff, 0xcc, 0x00, 0x00, 0x00,
  0x1d, 0x00, 0x00, 0x00, 0x73, 0x65, 0x72, 0x76, 0x69, 0x6e, 0x67, 0x5f,
  0x64, 0x65, 0x66, 0x61, 0x75, 0x6c, 0x74, 0x5f, 0x64, 0x65, 0x6e, 0x73,
  0x65, 0x5f, 0x69, 0x6e, 0x70, 0x75, 0x74, 0x3a, 0x30, 0x00, 0x00, 0x00,
  0x02, 0x00, 0x00, 0x00, 0x01, 0x00, 0x00, 0x00, 0xcc, 0x00, 0x00, 0x00,
  0xfc, 0xff, 0xff, 0xff, 0x04, 0x00, 0x04, 0x00, 0x04, 0x00, 0x00, 0x00
};
const unsigned int apples_model_tflite_len = 6192;
